/* Copyright 2020 The TensorFlow Authors. All Rights Reserved.

Licensed under the Apache License, Version 2.0 (the "License");
you may not use this file except in compliance with the License.
You may obtain a copy of the License at

    http://www.apache.org/licenses/LICENSE-2.0

Unless required by applicable law or agreed to in writing, software
distributed under the License is distributed on an "AS IS" BASIS,
WITHOUT WARRANTIES OR CONDITIONS OF ANY KIND, either express or implied.
See the License for the specific language governing permissions and
limitations under the License.
==============================================================================*/

// This is a standard TensorFlow Lite FlatBuffer model file that has been
// converted into a C data array, so it can be easily compiled into a binary
// for devices that don't have a file system. It was created using the command:
// xxd -i model.tflite > model.cc

#include "micro_features_model.h"

// We need to keep the data array aligned on some architectures.
#ifdef __has_attribute
#define HAVE_ATTRIBUTE(x) __has_attribute(x)
#else
#define HAVE_ATTRIBUTE(x) 0
#endif
#if HAVE_ATTRIBUTE(aligned) || (defined(__GNUC__) && !defined(__clang__))
#define DATA_ALIGN_ATTRIBUTE __attribute__((aligned(4)))
#else
#define DATA_ALIGN_ATTRIBUTE
#endif

const unsigned char g_model[] DATA_ALIGN_ATTRIBUTE =  {
  0x1c, 0x00, 0x00, 0x00, 0x54, 0x46, 0x4c, 0x33, 0x14, 0x00, 0x20, 0x00,
  0x1c, 0x00, 0x18, 0x00, 0x14, 0x00, 0x10, 0x00, 0x0c, 0x00, 0x00, 0x00,
  0x08, 0x00, 0x04, 0x00, 0x14, 0x00, 0x00, 0x00, 0x1c, 0x00, 0x00, 0x00,
  0x80, 0x00, 0x00, 0x00, 0xd8, 0x00, 0x00, 0x00, 0x58, 0x0d, 0x00, 0x00,
  0x68, 0x0d, 0x00, 0x00, 0x90, 0x1b, 0x00, 0x00, 0x03, 0x00, 0x00, 0x00,
  0x01, 0x00, 0x00, 0x00, 0x04, 0x00, 0x00, 0x00, 0xe2, 0xf1, 0xff, 0xff,
  0x0c, 0x00, 0x00, 0x00, 0x1c, 0x00, 0x00, 0x00, 0x38, 0x00, 0x00, 0x00,
  0x0f, 0x00, 0x00, 0x00, 0x73, 0x65, 0x72, 0x76, 0x69, 0x6e, 0x67, 0x5f,
  0x64, 0x65, 0x66, 0x61, 0x75, 0x6c, 0x74, 0x00, 0x01, 0x00, 0x00, 0x00,
  0x04, 0x00, 0x00, 0x00, 0x9c, 0xff, 0xff, 0xff, 0x0e, 0x00, 0x00, 0x00,
  0x04, 0x00, 0x00, 0x00, 0x05, 0x00, 0x00, 0x00, 0x64, 0x65, 0x6e, 0x73,
  0x65, 0x00, 0x00, 0x00, 0x01, 0x00, 0x00, 0x00, 0x04, 0x00, 0x00, 0x00,
  0x82, 0xf2, 0xff, 0xff, 0x04, 0x00, 0x00, 0x00, 0x07, 0x00, 0x00, 0x00,
  0x69, 0x6e, 0x70, 0x75, 0x74, 0x5f, 0x31, 0x00, 0x02, 0x00, 0x00, 0x00,
  0x34, 0x00, 0x00, 0x00, 0x04, 0x00, 0x00, 0x00, 0xdc, 0xff, 0xff, 0xff,
  0x11, 0x00, 0x00, 0x00, 0x04, 0x00, 0x00, 0x00, 0x13, 0x00, 0x00, 0x00,
  0x43, 0x4f, 0x4e, 0x56, 0x45, 0x52, 0x53, 0x49, 0x4f, 0x4e, 0x5f, 0x4d,
  0x45, 0x54, 0x41, 0x44, 0x41, 0x54, 0x41, 0x00, 0x08, 0x00, 0x0c, 0x00,
  0x08, 0x00, 0x04, 0x00, 0x08, 0x00, 0x00, 0x00, 0x10, 0x00, 0x00, 0x00,
  0x04, 0x00, 0x00, 0x00, 0x13, 0x00, 0x00, 0x00, 0x6d, 0x69, 0x6e, 0x5f,
  0x72, 0x75, 0x6e, 0x74, 0x69, 0x6d, 0x65, 0x5f, 0x76, 0x65, 0x72, 0x73,
  0x69, 0x6f, 0x6e, 0x00, 0x12, 0x00, 0x00, 0x00, 0x7c, 0x0c, 0x00, 0x00,
  0x74, 0x0c, 0x00, 0x00, 0x5c, 0x0c, 0x00, 0x00, 0x3c, 0x0c, 0x00, 0x00,
  0x2c, 0x06, 0x00, 0x00, 0xdc, 0x05, 0x00, 0x00, 0x4c, 0x01, 0x00, 0x00,
  0x1c, 0x01, 0x00, 0x00, 0xc4, 0x00, 0x00, 0x00, 0xbc, 0x00, 0x00, 0x00,
  0xb4, 0x00, 0x00, 0x00, 0xac, 0x00, 0x00, 0x00, 0xa4, 0x00, 0x00, 0x00,
  0x9c, 0x00, 0x00, 0x00, 0x94, 0x00, 0x00, 0x00, 0x8c, 0x00, 0x00, 0x00,
  0x6c, 0x00, 0x00, 0x00, 0x04, 0x00, 0x00, 0x00, 0x3e, 0xf3, 0xff, 0xff,
  0x04, 0x00, 0x00, 0x00, 0x58, 0x00, 0x00, 0x00, 0x0c, 0x00, 0x00, 0x00,
  0x08, 0x00, 0x0e, 0x00, 0x08, 0x00, 0x04, 0x00, 0x08, 0x00, 0x00, 0x00,
  0x10, 0x00, 0x00, 0x00, 0x28, 0x00, 0x00, 0x00, 0x00, 0x00, 0x06, 0x00,
  0x08, 0x00, 0x04, 0x00, 0x06, 0x00, 0x00, 0x00, 0x04, 0x00, 0x00, 0x00,
  0x01, 0x00, 0x00, 0x00, 0xeb, 0x03, 0x00, 0x00, 0x00, 0x00, 0x0a, 0x00,
  0x10, 0x00, 0x0c, 0x00, 0x08, 0x00, 0x04, 0x00, 0x0a, 0x00, 0x00, 0x00,
  0x02, 0x00, 0x00, 0x00, 0x02, 0x00, 0x00, 0x00, 0x04, 0x00, 0x00, 0x00,
  0x06, 0x00, 0x00, 0x00, 0x32, 0x2e, 0x31, 0x30, 0x2e, 0x30, 0x00, 0x00,
  0xa2, 0xf3, 0xff, 0xff, 0x04, 0x00, 0x00, 0x00, 0x10, 0x00, 0x00, 0x00,
  0x31, 0x2e, 0x31, 0x34, 0x2e, 0x30, 0x00, 0x00, 0x00, 0x00, 0x00, 0x00,
  0x00, 0x00, 0x00, 0x00, 0xe4, 0xe6, 0xff, 0xff, 0xe8, 0xe6, 0xff, 0xff,
  0xec, 0xe6, 0xff, 0xff, 0xf0, 0xe6, 0xff, 0xff, 0xf4, 0xe6, 0xff, 0xff,
  0xf8, 0xe6, 0xff, 0xff, 0xfc, 0xe6, 0xff, 0xff, 0xda, 0xf3, 0xff, 0xff,
  0x04, 0x00, 0x00, 0x00, 0x48, 0x00, 0x00, 0x00, 0x7f, 0xd6, 0xa8, 0xe9,
  0x34, 0xca, 0xd6, 0x50, 0xfb, 0xfc, 0xde, 0xdb, 0xfb, 0xea, 0xf0, 0x77,
  0x7f, 0x01, 0xf5, 0xde, 0xe8, 0x2d, 0x3f, 0x23, 0x1f, 0x7f, 0x41, 0x7f,
  0x27, 0xe0, 0x71, 0xd7, 0xd0, 0x71, 0xd3, 0xd3, 0xea, 0x1f, 0x54, 0x07,
  0x1e, 0x7f, 0xa9, 0x00, 0xf4, 0xc5, 0x1b, 0x7f, 0xae, 0xe6, 0x36, 0xd0,
  0xde, 0x53, 0x17, 0x06, 0xd3, 0x7f, 0x05, 0xe4, 0x74, 0x28, 0xe7, 0x81,
  0xa2, 0x06, 0x37, 0x99, 0xe9, 0x0f, 0xf1, 0xe9, 0x2e, 0xf4, 0xff, 0xff,
  0x04, 0x00, 0x00, 0x00, 0x20, 0x00, 0x00, 0x00, 0xf8, 0xe3, 0xff, 0xff,
  0x54, 0xa4, 0xff, 0xff, 0x0c, 0x3c, 0xff, 0xff, 0xc4, 0x6d, 0xff, 0xff,
  0x7c, 0x80, 0xff, 0xff, 0x90, 0xd9, 0xff, 0xff, 0x43, 0x5c, 0xff, 0xff,
  0x67, 0xae, 0x00, 0x00, 0x5a, 0xf4, 0xff, 0xff, 0x04, 0x00, 0x00, 0x00,
  0x80, 0x04, 0x00, 0x00, 0xea, 0xef, 0x02, 0x0d, 0x2c, 0xfb, 0xed, 0xbb,
  0xf4, 0x0f, 0x07, 0x22, 0xfb, 0xfa, 0x1a, 0xb9, 0x01, 0xea, 0xf1, 0x04,
  0x1a, 0x18, 0xea, 0xd6, 0xf5, 0x0e, 0xef, 0x01, 0x03, 0x10, 0x96, 0xe3,
  0x0b, 0x4f, 0x25, 0xd9, 0x10, 0xfa, 0x1f, 0xca, 0xec, 0xde, 0xd2, 0x04,
  0xea, 0xf0, 0xd3, 0xf6, 0xf2, 0xef, 0xe4, 0x24, 0x3a, 0x1e, 0xac, 0x13,
  0x00, 0x4a, 0x20, 0xdd, 0xcb, 0xec, 0x7f, 0xd9, 0xf2, 0xf3, 0xbf, 0x0e,
  0xf0, 0x0e, 0xc6, 0xf1, 0xbc, 0xfb, 0xfd, 0x19, 0x26, 0xe5, 0x4c, 0xfe,
  0xc2, 0xed, 0x0f, 0xf6, 0x14, 0xe8, 0x11, 0xea, 0xd8, 0x06, 0x0a, 0xe6,
  0x21, 0xcf, 0x2b, 0xef, 0xd2, 0xd6, 0xc9, 0xf7, 0x00, 0x20, 0xc7, 0x00,
  0xe1, 0xce, 0xf7, 0xce, 0x1b, 0x1d, 0x09, 0xe7, 0xf0, 0xd5, 0xde, 0x31,
  0xf9, 0x14, 0x12, 0xe7, 0xcf, 0x0b, 0xcd, 0xc0, 0xe4, 0x19, 0x9a, 0x13,
  0xf4, 0xff, 0xc8, 0xb9, 0xd2, 0x1b, 0xc6, 0x2d, 0x08, 0xe3, 0x81, 0xea,
  0xce, 0x03, 0xd9, 0x08, 0xfa, 0xfb, 0x1c, 0xc8, 0x2c, 0x12, 0x03, 0xfc,
  0xf6, 0x0a, 0x27, 0x14, 0x09, 0x0d, 0x09, 0xff, 0xf7, 0x05, 0x03, 0xed,
  0x04, 0xf8, 0x0b, 0xf8, 0x08, 0xc2, 0x11, 0xf0, 0x36, 0x13, 0xd1, 0xf6,
  0xf7, 0xf8, 0x1f, 0x02, 0x1c, 0x03, 0xf9, 0xfa, 0x21, 0xed, 0xd4, 0xfd,
  0x29, 0xf5, 0xf5, 0x13, 0x06, 0x7f, 0xf5, 0xf8, 0x4e, 0x11, 0xce, 0x1a,
  0x0f, 0xf6, 0x39, 0xf4, 0xf9, 0x0f, 0xd2, 0x09, 0xef, 0x03, 0x01, 0xe5,
  0xf0, 0x38, 0xf0, 0x11, 0xf7, 0xf8, 0x07, 0xdc, 0x08, 0xfe, 0xf7, 0xef,
  0xf3, 0x01, 0xfc, 0xe9, 0x01, 0xf3, 0x16, 0xf1, 0x0c, 0x0c, 0x0b, 0x1c,
  0xeb, 0xe6, 0xfb, 0xdb, 0xd7, 0x1f, 0x4b, 0x08, 0x01, 0xe9, 0x2d, 0x00,
  0xfc, 0x23, 0xfb, 0x13, 0x22, 0xef, 0x01, 0xef, 0xf7, 0xf0, 0x24, 0x01,
  0x29, 0xf4, 0xfd, 0xeb, 0xe9, 0xe4, 0x34, 0x1f, 0xf9, 0xe7, 0x29, 0x0e,
  0xf4, 0xf3, 0x04, 0x0d, 0x10, 0xf8, 0x13, 0xf3, 0xdb, 0x1e, 0x7f, 0xce,
  0x14, 0x19, 0x29, 0xf4, 0xc5, 0x1f, 0x13, 0xb4, 0xfe, 0xf3, 0x08, 0x0d,
  0xe9, 0x1d, 0x6a, 0xe9, 0xfc, 0xcc, 0x04, 0xee, 0x0a, 0x7a, 0x39, 0xc0,
  0x02, 0xf1, 0x63, 0x08, 0xee, 0x6f, 0x07, 0xfa, 0x9f, 0xb7, 0xfd, 0xeb,
  0x24, 0xdc, 0xd0, 0xce, 0xea, 0xe7, 0xeb, 0xf9, 0xeb, 0xf5, 0xcf, 0xa2,
  0x16, 0x06, 0xb7, 0xf1, 0xcf, 0xbf, 0x38, 0x0b, 0xae, 0xcd, 0x1f, 0xce,
  0xe6, 0x21, 0x22, 0x0e, 0xf8, 0xd2, 0x29, 0xba, 0xb4, 0x7f, 0x47, 0xd3,
  0x3f, 0x24, 0x15, 0xc0, 0xed, 0x10, 0x28, 0xf1, 0xd4, 0xe8, 0x5d, 0xd2,
  0xea, 0x1c, 0xea, 0x3c, 0x9c, 0xaa, 0x4c, 0xe7, 0xe7, 0xe1, 0xad, 0xf1,
  0xce, 0xb6, 0xb6, 0xdf, 0xdd, 0x42, 0x7f, 0x29, 0x00, 0xe2, 0x2e, 0x0a,
  0xe5, 0x1e, 0x2e, 0xf3, 0xce, 0xde, 0x7f, 0xe6, 0x1e, 0xee, 0xb6, 0xc3,
  0xe8, 0xef, 0xd6, 0x00, 0xde, 0xd4, 0x19, 0xd9, 0x15, 0x19, 0x11, 0xeb,
  0xea, 0x29, 0x2c, 0xef, 0xe8, 0x06, 0x50, 0xf3, 0xf5, 0xfb, 0x1d, 0xdb,
  0xab, 0xe6, 0x38, 0xde, 0xdf, 0xa4, 0xea, 0x36, 0xf0, 0xd8, 0x21, 0xfc,
  0x08, 0xbc, 0xcf, 0x09, 0xf2, 0xd8, 0xee, 0xfd, 0xc0, 0x92, 0xf8, 0xf8,
  0xfb, 0x0f, 0xee, 0x17, 0xef, 0xbe, 0xc6, 0x43, 0x12, 0x38, 0xd9, 0xef,
  0xee, 0xc6, 0xbd, 0xfc, 0xf3, 0x08, 0xec, 0xf8, 0x01, 0xb5, 0xbc, 0x0d,
  0xc5, 0xda, 0xd9, 0xfd, 0x0d, 0xdd, 0xdb, 0x0b, 0x3e, 0x44, 0xe0, 0xed,
  0x41, 0xbc, 0x81, 0x73, 0x0a, 0xe8, 0xf9, 0xfd, 0x1c, 0xb8, 0xcd, 0x0e,
  0x99, 0xdf, 0xe1, 0xf9, 0x46, 0xcc, 0xef, 0xcf, 0x1a, 0x39, 0xe2, 0xec,
  0x04, 0x1a, 0x2b, 0x2c, 0x00, 0xf9, 0x56, 0x25, 0x03, 0x36, 0xf4, 0x0e,
  0xe6, 0x07, 0x2a, 0x0f, 0x00, 0x81, 0xaf, 0xd1, 0x1b, 0x34, 0x84, 0x0f,
  0xf8, 0xca, 0x1e, 0xfb, 0x19, 0x39, 0x14, 0x21, 0xe1, 0xf3, 0x29, 0xfd,
  0xf3, 0x48, 0x26, 0x0e, 0x02, 0xb7, 0xa2, 0x02, 0x16, 0x26, 0xa6, 0x03,
  0xf2, 0x88, 0x1a, 0x0d, 0x5c, 0x08, 0xe3, 0x0c, 0xf3, 0xee, 0x62, 0xb7,
  0x19, 0x18, 0x61, 0x01, 0xd8, 0x10, 0x2d, 0x20, 0xf1, 0xbc, 0x45, 0x23,
  0xcf, 0x1b, 0x25, 0xcd, 0xf7, 0xed, 0x13, 0x0c, 0x13, 0x7f, 0x40, 0xf6,
  0x0a, 0xcb, 0x4c, 0x09, 0xde, 0x08, 0x2c, 0x71, 0xbd, 0xb9, 0x5d, 0x01,
  0x13, 0xcc, 0x08, 0x35, 0xef, 0xdb, 0x01, 0x07, 0x21, 0xb8, 0x00, 0x14,
  0x0a, 0x09, 0x01, 0x12, 0x04, 0xfb, 0xdb, 0x0c, 0xd2, 0xbb, 0x1d, 0x01,
  0x16, 0xbd, 0x88, 0x42, 0xc7, 0xf1, 0xde, 0xf5, 0xf9, 0x94, 0xae, 0xfc,
  0x06, 0xef, 0x99, 0x29, 0x0c, 0x27, 0x31, 0xf2, 0xfc, 0xfd, 0x07, 0xed,
  0xfb, 0x12, 0x03, 0x2d, 0xeb, 0xd0, 0x50, 0x07, 0x24, 0xf4, 0xee, 0x32,
  0xf5, 0xf4, 0x67, 0xeb, 0xef, 0x24, 0x65, 0x04, 0x0d, 0xf5, 0x25, 0xf0,
  0xff, 0xc2, 0xc9, 0x21, 0xd8, 0xd7, 0x12, 0x0f, 0x01, 0x9e, 0xba, 0xdc,
  0xee, 0x06, 0xe5, 0x13, 0x45, 0xf2, 0xd2, 0x31, 0xe1, 0x0b, 0x42, 0x0a,
  0x29, 0xac, 0x81, 0x2d, 0xb7, 0xf0, 0xb2, 0x18, 0x0a, 0x06, 0xdb, 0xe3,
  0xe5, 0xf6, 0xc3, 0x1c, 0xe9, 0xe5, 0xef, 0xa9, 0xb5, 0x76, 0x9e, 0x41,
  0x05, 0x1e, 0x24, 0xa1, 0xe7, 0x37, 0xdd, 0xdb, 0xe2, 0x3a, 0x37, 0xc0,
  0x1a, 0x41, 0x0d, 0xd3, 0x0c, 0x0a, 0x31, 0x83, 0x1c, 0xe3, 0xa2, 0xf9,
  0xce, 0x30, 0x33, 0xe4, 0x10, 0xf0, 0x36, 0xdf, 0xc1, 0xea, 0x1e, 0x4a,
  0x24, 0x00, 0x7f, 0x09, 0xff, 0xf0, 0xfb, 0xf5, 0x32, 0xe4, 0xa8, 0xdc,
  0x1b, 0x0a, 0xf6, 0x04, 0xea, 0xc7, 0x12, 0xe2, 0x05, 0xa1, 0x8e, 0x34,
  0xea, 0xe8, 0xed, 0x03, 0x20, 0x81, 0xc9, 0x77, 0xf5, 0x11, 0xcd, 0xc9,
  0x0e, 0xef, 0xea, 0x16, 0x0f, 0x2f, 0xde, 0xe0, 0xfa, 0x1b, 0x01, 0xf6,
  0x27, 0x1d, 0xe4, 0x0f, 0x29, 0xf4, 0xd2, 0xc9, 0xbc, 0x23, 0x8e, 0xdc,
  0x2a, 0x10, 0x1b, 0xb3, 0xee, 0x06, 0xc3, 0xd3, 0x14, 0x29, 0x4b, 0xe4,
  0x0c, 0x17, 0x3a, 0x07, 0x11, 0xdc, 0xff, 0xd0, 0x2a, 0x06, 0xa4, 0xe0,
  0xe8, 0xd9, 0x20, 0xa4, 0x2b, 0xfc, 0xf5, 0xc2, 0xfb, 0x04, 0x2d, 0xe6,
  0x13, 0xe7, 0x66, 0xd9, 0x0e, 0x05, 0xf1, 0x3b, 0xe2, 0xe7, 0x1b, 0xcd,
  0xd6, 0xec, 0xf6, 0x18, 0x0e, 0xff, 0xd9, 0xe5, 0xaf, 0x05, 0x42, 0xc2,
  0x17, 0x06, 0xec, 0xdd, 0xed, 0xf0, 0xf4, 0xe8, 0x81, 0xb6, 0x19, 0xb1,
  0xe4, 0xc2, 0xdc, 0xd8, 0xf2, 0xe6, 0xad, 0xb9, 0xed, 0xc9, 0xfa, 0x19,
  0x1b, 0xef, 0xd1, 0xc4, 0x08, 0xf9, 0xe7, 0x1f, 0xc2, 0xaa, 0x47, 0x9b,
  0x1f, 0xc9, 0xe0, 0x54, 0xfb, 0xe1, 0xa3, 0xdc, 0x0d, 0xe9, 0xe1, 0x53,
  0xea, 0xfa, 0xd7, 0xfd, 0xff, 0xe4, 0xed, 0xf1, 0x09, 0x1b, 0xeb, 0xf1,
  0xf5, 0xf5, 0x07, 0x00, 0xd1, 0x18, 0x0e, 0xf4, 0xe9, 0x1b, 0x21, 0xee,
  0xef, 0x03, 0x1e, 0xec, 0x02, 0xbc, 0xbe, 0xf1, 0x24, 0xf8, 0x85, 0xe9,
  0xfa, 0xf9, 0x33, 0xe2, 0x4c, 0xfb, 0xbb, 0xe9, 0x0b, 0x18, 0x77, 0xed,
  0x31, 0xf5, 0x51, 0xee, 0xe5, 0x07, 0x9f, 0xf8, 0x2e, 0x01, 0x81, 0x31,
  0xf7, 0xd8, 0x06, 0xd8, 0x0d, 0x12, 0x9d, 0x13, 0xd7, 0xfb, 0x60, 0xe2,
  0x44, 0x15, 0xe1, 0x07, 0x08, 0x27, 0x28, 0x0a, 0x12, 0xfc, 0x2a, 0x16,
  0xfd, 0x01, 0x0c, 0xdb, 0x03, 0xe3, 0x0e, 0x02, 0x23, 0xe3, 0xe6, 0x17,
  0x0b, 0xfd, 0xe9, 0xf7, 0x05, 0x26, 0x18, 0xf9, 0xe1, 0x02, 0x09, 0x12,
  0x0c, 0xf2, 0xef, 0xfd, 0xe7, 0x16, 0x35, 0x1b, 0x1f, 0xff, 0xce, 0x0b,
  0xc9, 0xf0, 0xf3, 0x31, 0x03, 0xed, 0x32, 0x2c, 0x7f, 0xe9, 0xe7, 0xf6,
  0x0b, 0x34, 0x09, 0xfb, 0x1d, 0xf9, 0x1e, 0xf8, 0x3b, 0xfe, 0xdd, 0x1e,
  0xf9, 0xf9, 0x16, 0x02, 0xc7, 0xe8, 0x09, 0xa5, 0xf0, 0xf6, 0xd5, 0x14,
  0x13, 0xd7, 0xee, 0xe8, 0xfc, 0xf4, 0xe5, 0xe9, 0x0e, 0xe8, 0xdb, 0x44,
  0x22, 0xa6, 0xe5, 0xf6, 0xe5, 0xc5, 0xd7, 0xaf, 0xaa, 0xa0, 0xa4, 0xda,
  0x20, 0x0b, 0xda, 0xcc, 0xab, 0xd4, 0xb8, 0x1a, 0xd8, 0xd1, 0xe3, 0xfd,
  0xd1, 0xbc, 0xa7, 0x32, 0xdb, 0xb7, 0xb6, 0xde, 0xee, 0xba, 0x81, 0xfe,
  0xc9, 0x11, 0xf7, 0xcd, 0xc5, 0xb4, 0xb0, 0xe4, 0xd9, 0x08, 0xdb, 0x05,
  0x57, 0xe3, 0xae, 0xf4, 0xe6, 0xf8, 0xff, 0xff, 0x04, 0x00, 0x00, 0x00,
  0x40, 0x00, 0x00, 0x00, 0xba, 0x07, 0x00, 0x00, 0xda, 0x07, 0x00, 0x00,
  0xb8, 0xe5, 0xff, 0xff, 0x35, 0xf7, 0xff, 0xff, 0xca, 0x0b, 0x00, 0x00,
  0x3f, 0x07, 0x00, 0x00, 0x78, 0x23, 0x00, 0x00, 0xc0, 0xe5, 0xff, 0xff,
  0x02, 0xf3, 0xff, 0xff, 0x1c, 0xeb, 0xff, 0xff, 0xbb, 0x00, 0x00, 0x00,
  0xa7, 0x08, 0x00, 0x00, 0x01, 0x3c, 0x00, 0x00, 0xda, 0xfc, 0xff, 0xff,
  0xa3, 0xe0, 0xff, 0xff, 0x82, 0x67, 0x00, 0x00, 0x32, 0xf9, 0xff, 0xff,
  0x04, 0x00, 0x00, 0x00, 0x00, 0x06, 0x00, 0x00, 0xe9, 0xd1, 0xda, 0x09,
  0x08, 0x00, 0xf3, 0xdd, 0x02, 0xf4, 0xec, 0xe2, 0x0b, 0xe2, 0xe6, 0x2c,
  0xf0, 0xce, 0xdb, 0xf5, 0x09, 0xfa, 0xde, 0xe9, 0x03, 0xe8, 0xed, 0xf8,
  0x09, 0x01, 0xe2, 0x13, 0xf7, 0xfd, 0xfa, 0xf9, 0x04, 0xf3, 0xed, 0xec,
  0x05, 0xfd, 0x09, 0xf4, 0x10, 0xec, 0xe8, 0x1e, 0x07, 0x12, 0x00, 0xf3,
  0x00, 0x00, 0xf6, 0x01, 0x10, 0x0c, 0xf4, 0xfc, 0x02, 0x03, 0xec, 0x0e,
  0x02, 0xff, 0xef, 0x00, 0x0d, 0x05, 0xf0, 0x06, 0x0d, 0xf6, 0x00, 0xf3,
  0x00, 0xf9, 0xe2, 0x1a, 0xf7, 0x09, 0x11, 0xfb, 0x09, 0x04, 0xf9, 0xf2,
  0x04, 0x0c, 0x06, 0xf6, 0xff, 0xee, 0xee, 0x0f, 0xf4, 0xe6, 0x17, 0xb4,
  0x02, 0xe2, 0x1e, 0xdd, 0xd7, 0xdf, 0xe8, 0xf8, 0x14, 0x00, 0x07, 0x29,
  0xfd, 0xfc, 0x1c, 0xd5, 0xef, 0xed, 0x20, 0x95, 0xce, 0xc9, 0xe0, 0x02,
  0x1b, 0x00, 0x41, 0x0e, 0xf9, 0xef, 0xe1, 0xef, 0xf7, 0xfd, 0xfc, 0xda,
  0xe5, 0xb4, 0xf6, 0x10, 0x0c, 0xde, 0xe8, 0x0a, 0x0e, 0x14, 0xfd, 0xc4,
  0xf9, 0x00, 0x23, 0xeb, 0xeb, 0xca, 0x14, 0x03, 0x02, 0xdb, 0xea, 0x0e,
  0xf4, 0x14, 0xfb, 0xeb, 0x10, 0xee, 0x1a, 0xfb, 0x22, 0x28, 0x18, 0xea,
  0x12, 0x0b, 0xf2, 0x0e, 0x19, 0x10, 0x03, 0xff, 0x0e, 0x00, 0x2c, 0xfd,
  0x0f, 0x17, 0xfa, 0xfd, 0x0b, 0xf1, 0xfa, 0x08, 0x0d, 0xed, 0xf4, 0x92,
  0xdb, 0x81, 0x14, 0xd2, 0x96, 0xb4, 0xf8, 0xfe, 0x17, 0xe3, 0xb9, 0x20,
  0x03, 0xdb, 0xdc, 0xa9, 0xd1, 0xa2, 0x19, 0xc2, 0xb0, 0x07, 0x01, 0x12,
  0x12, 0xc2, 0xf2, 0x11, 0xf8, 0xef, 0x03, 0xdb, 0xee, 0xec, 0x0c, 0xe7,
  0xcb, 0xf7, 0xfd, 0xf4, 0x02, 0xde, 0xde, 0x07, 0xf4, 0xff, 0xdf, 0xbd,
  0xe8, 0x29, 0x21, 0xdc, 0xc4, 0xed, 0xf4, 0xde, 0x0d, 0x05, 0xf4, 0x03,
  0x16, 0xfd, 0xbd, 0xf7, 0x0d, 0x0e, 0x1c, 0xf0, 0x05, 0xe9, 0xf2, 0x03,
  0x09, 0x11, 0xce, 0x15, 0x0e, 0x0c, 0x07, 0xf8, 0x06, 0x14, 0x01, 0xf5,
  0x0b, 0xfd, 0x14, 0x1a, 0x05, 0x21, 0xf4, 0x07, 0x04, 0xc1, 0xca, 0xb3,
  0xb8, 0x9e, 0xfe, 0xb8, 0x96, 0xc9, 0x08, 0x01, 0x02, 0xcb, 0x00, 0xfa,
  0xdb, 0xe7, 0xfb, 0xcd, 0xce, 0x99, 0x05, 0xe8, 0x02, 0x04, 0x00, 0xfa,
  0x16, 0xe9, 0xf4, 0x0d, 0xc8, 0xf7, 0x1e, 0xf0, 0xfa, 0xca, 0x12, 0xe9,
  0xe1, 0x01, 0xf9, 0x18, 0x1a, 0xe2, 0xf6, 0x10, 0xe9, 0xf7, 0x1e, 0xec,
  0xe3, 0xf1, 0x04, 0x0b, 0xec, 0xe1, 0xe1, 0x00, 0xf1, 0x27, 0xf8, 0x07,
  0xe3, 0x13, 0xba, 0xe1, 0xf9, 0x2a, 0x06, 0x17, 0xff, 0xe8, 0xfb, 0x0d,
  0xf4, 0xfa, 0xe2, 0x03, 0xcf, 0x14, 0xfb, 0xeb, 0x0c, 0x1c, 0x04, 0xf4,
  0x1a, 0x2d, 0x18, 0xed, 0x0b, 0xf8, 0xea, 0x14, 0xf2, 0x19, 0x11, 0x11,
  0x08, 0x1e, 0xed, 0xfe, 0xff, 0xec, 0xed, 0xee, 0xe8, 0x00, 0x0a, 0x11,
  0xfa, 0x14, 0xff, 0x01, 0x03, 0x05, 0x05, 0xf4, 0x03, 0x00, 0xe3, 0xef,
  0x02, 0xf8, 0x04, 0x04, 0x02, 0x0d, 0x05, 0x03, 0x10, 0x05, 0x15, 0xf7,
  0xfc, 0xfc, 0x0c, 0x05, 0xfe, 0xfe, 0xf3, 0x1c, 0x02, 0x0f, 0x08, 0xfb,
  0x17, 0x05, 0x18, 0xf3, 0x07, 0xfd, 0x09, 0xf9, 0x01, 0x0f, 0x02, 0x11,
  0x01, 0xf5, 0xfe, 0xf7, 0x06, 0x04, 0xff, 0xfd, 0x05, 0xfd, 0x01, 0xea,
  0x08, 0xf6, 0x08, 0x1a, 0xfc, 0x11, 0x07, 0xf3, 0xfc, 0x05, 0x0d, 0x00,
  0x00, 0x00, 0x0d, 0x07, 0x00, 0xfd, 0x0c, 0x2c, 0xf0, 0x2f, 0x05, 0x19,
  0x04, 0x1b, 0x03, 0x0d, 0x08, 0x00, 0xfe, 0xf1, 0xd5, 0xfb, 0x08, 0x2b,
  0xf8, 0x20, 0xf3, 0x12, 0xf4, 0x01, 0x24, 0xfd, 0x10, 0x01, 0xff, 0xea,
  0xe7, 0xfe, 0xfc, 0x07, 0x04, 0x0e, 0x02, 0x06, 0x00, 0xf0, 0x09, 0xf5,
  0x10, 0x03, 0x08, 0xff, 0xf4, 0x11, 0xf9, 0x10, 0xf0, 0x03, 0x05, 0x11,
  0x0f, 0x00, 0x12, 0xfc, 0xfd, 0xfd, 0xf0, 0xf8, 0xe8, 0x09, 0xf8, 0xff,
  0x1b, 0x07, 0xfa, 0x04, 0x05, 0x04, 0xf2, 0x00, 0x00, 0x06, 0xfc, 0x0c,
  0x03, 0x06, 0xfb, 0xf6, 0xff, 0xec, 0x09, 0x07, 0xf5, 0xf5, 0xfd, 0xfc,
  0xfa, 0x0a, 0xfc, 0x0b, 0xf0, 0x06, 0x17, 0xfb, 0xf8, 0x10, 0x10, 0x1f,
  0x15, 0x25, 0xf1, 0x0f, 0x02, 0xf1, 0xee, 0xf7, 0xb4, 0xf9, 0x03, 0x11,
  0xdf, 0x14, 0xfe, 0x19, 0x19, 0x16, 0x0e, 0x0b, 0x09, 0x09, 0xf1, 0xfd,
  0xd5, 0x01, 0xf8, 0x0f, 0x08, 0x12, 0x07, 0x06, 0x07, 0x03, 0x0f, 0x08,
  0x06, 0x06, 0x01, 0x10, 0xde, 0x0b, 0xfe, 0xf6, 0xf4, 0x10, 0xff, 0x09,
  0x0d, 0x02, 0xf5, 0xf5, 0x0c, 0x03, 0xf5, 0x00, 0xa9, 0x15, 0xfb, 0xee,
  0x08, 0xfb, 0x0a, 0x0c, 0xff, 0xf9, 0xec, 0x06, 0x05, 0x02, 0xf5, 0xfb,
  0xb2, 0x05, 0x06, 0xda, 0x03, 0xf4, 0x00, 0xf7, 0xed, 0xfe, 0xdc, 0x08,
  0xfd, 0x09, 0xfb, 0xfe, 0xce, 0x06, 0x14, 0xf8, 0x02, 0x29, 0x13, 0x31,
  0x0f, 0x21, 0xf5, 0x0f, 0x06, 0xe0, 0x07, 0xff, 0x9e, 0xfe, 0x06, 0x22,
  0x07, 0x22, 0xff, 0x22, 0x16, 0x17, 0x19, 0xf8, 0x03, 0x09, 0xf9, 0xed,
  0xee, 0xf3, 0x09, 0x05, 0xdf, 0x26, 0xfe, 0x0b, 0xf9, 0xf7, 0x00, 0xfd,
  0x1f, 0x06, 0xff, 0xe9, 0xdd, 0x14, 0x00, 0x02, 0xf5, 0x07, 0x01, 0x0b,
  0xed, 0xfc, 0xee, 0xfe, 0xfa, 0xf7, 0xff, 0xfa, 0xac, 0x1f, 0xf9, 0xf7,
  0x16, 0x02, 0xff, 0x0f, 0x03, 0x07, 0xf1, 0x03, 0x0a, 0x09, 0xf6, 0xf7,
  0xb1, 0xfe, 0xff, 0xe6, 0xfd, 0xec, 0x0d, 0x0f, 0x0b, 0x12, 0xf9, 0x08,
  0x08, 0x06, 0xf6, 0x01, 0x9f, 0x17, 0x0d, 0xff, 0x25, 0x01, 0x1d, 0xf4,
  0xdc, 0xd6, 0xbf, 0x01, 0xec, 0x10, 0x48, 0x57, 0xf0, 0x17, 0x18, 0xa5,
  0x10, 0x2a, 0x0f, 0x01, 0xea, 0xef, 0xeb, 0xfc, 0x14, 0x27, 0x2e, 0x41,
  0xec, 0x11, 0xf8, 0xc5, 0x11, 0x0a, 0xf7, 0xfe, 0xf9, 0x0d, 0xba, 0x1b,
  0xea, 0xf1, 0xdb, 0x0e, 0xf7, 0x1b, 0x0e, 0xb1, 0x09, 0xe7, 0xfc, 0xf7,
  0xfd, 0xfb, 0xc8, 0x1e, 0xf2, 0xe2, 0xed, 0x09, 0x08, 0x07, 0x0b, 0xe6,
  0x05, 0xda, 0xf8, 0xf3, 0x06, 0xef, 0x07, 0x0b, 0x00, 0xfd, 0x03, 0x1b,
  0xfd, 0x00, 0xed, 0xd6, 0x05, 0xf8, 0xf8, 0x02, 0x06, 0x07, 0xec, 0x1d,
  0xff, 0xf3, 0xfa, 0x11, 0xef, 0x0e, 0xf0, 0xc4, 0x20, 0xf6, 0x1a, 0xe5,
  0xcd, 0xeb, 0xc6, 0x0e, 0xe7, 0x0e, 0x2a, 0x21, 0xce, 0x00, 0x13, 0xa5,
  0x01, 0xea, 0xfc, 0xf1, 0xec, 0xe9, 0x05, 0xef, 0x0c, 0x1c, 0x24, 0x24,
  0xfb, 0x0b, 0xf5, 0xe6, 0x1c, 0x1c, 0x06, 0xfe, 0xea, 0x2e, 0xe7, 0x1d,
  0xed, 0xfa, 0xf4, 0x03, 0x0f, 0x2d, 0x1a, 0xf3, 0xf6, 0xea, 0xff, 0xf5,
  0x01, 0x15, 0xd3, 0x0a, 0x09, 0xec, 0xeb, 0xee, 0x06, 0x0f, 0x03, 0xfe,
  0xfa, 0xef, 0xfd, 0xf9, 0x08, 0xfe, 0xf2, 0x0c, 0xef, 0xfc, 0x00, 0x00,
  0x0b, 0x13, 0xe4, 0xf5, 0xf3, 0xf2, 0xf1, 0x25, 0x07, 0x0b, 0xd0, 0xf8,
  0xf0, 0xdd, 0x0a, 0x01, 0x05, 0x0f, 0xed, 0xed, 0x10, 0x1d, 0x12, 0xbe,
  0xd6, 0x1f, 0xdc, 0x0a, 0x14, 0x0e, 0x11, 0xfe, 0xe2, 0x1a, 0x0c, 0xcd,
  0xfc, 0xe1, 0x00, 0xe5, 0xe2, 0xdd, 0xef, 0x05, 0x27, 0x06, 0x24, 0x0b,
  0xd1, 0x0f, 0x0a, 0xf6, 0x1d, 0x08, 0x03, 0xdf, 0xbb, 0x4f, 0xef, 0x07,
  0xcc, 0xf6, 0x0c, 0xf1, 0xf1, 0x21, 0x19, 0xe6, 0x10, 0xfc, 0xff, 0xd0,
  0x07, 0x0e, 0xf5, 0x10, 0xed, 0xed, 0xf8, 0x0d, 0x14, 0x13, 0x10, 0xfc,
  0x09, 0xed, 0x0a, 0xe7, 0x15, 0x0d, 0xef, 0xf1, 0x03, 0x09, 0x0e, 0xf7,
  0x16, 0xfe, 0xf6, 0xfc, 0x05, 0x02, 0xf0, 0x00, 0x17, 0x03, 0xf6, 0xec,
  0xe4, 0xe2, 0xf8, 0x12, 0x0a, 0x0a, 0xe8, 0x04, 0x1f, 0x32, 0x19, 0xa7,
  0x94, 0xda, 0xf5, 0x0d, 0xff, 0x13, 0x15, 0x21, 0xab, 0x3f, 0x1c, 0xf7,
  0xe9, 0xe6, 0xf5, 0xe0, 0x11, 0xfb, 0xfc, 0x0c, 0x07, 0x18, 0x1f, 0x18,
  0xb7, 0x0e, 0xf7, 0xeb, 0x43, 0x0f, 0xdd, 0x03, 0xf9, 0x59, 0xfc, 0x1a,
  0xdb, 0xf8, 0xe0, 0xff, 0xf9, 0x2e, 0xf7, 0xfd, 0x1c, 0xfb, 0x05, 0xe7,
  0xe7, 0x0a, 0xf6, 0xfb, 0xf2, 0xeb, 0x03, 0x12, 0x2b, 0x0d, 0xfb, 0xfc,
  0x15, 0x04, 0xe4, 0xe6, 0xfa, 0xf0, 0xfc, 0xed, 0x07, 0x1e, 0x0c, 0x12,
  0x0e, 0xff, 0xf8, 0xfc, 0x13, 0x16, 0xdb, 0xf9, 0x02, 0x0c, 0x03, 0xe3,
  0xf9, 0xe6, 0x07, 0x27, 0x12, 0x0b, 0xce, 0x0e, 0xf7, 0xf9, 0x00, 0x13,
  0x0f, 0x0d, 0x4c, 0x00, 0x1b, 0x01, 0xd9, 0xe0, 0x0b, 0xfd, 0xfd, 0x00,
  0xf4, 0xc8, 0x05, 0xfe, 0x00, 0xfc, 0x02, 0x21, 0x02, 0xee, 0xeb, 0xe3,
  0xfd, 0xfb, 0x0f, 0xfe, 0xf3, 0xf7, 0x06, 0xfd, 0x00, 0xf9, 0x25, 0xf0,
  0x0f, 0x0a, 0x14, 0xf5, 0x09, 0xdf, 0x04, 0xfe, 0xfa, 0x05, 0x0d, 0x01,
  0xfe, 0x00, 0x30, 0xe6, 0x10, 0x13, 0x08, 0x06, 0xfa, 0x01, 0xf9, 0xf8,
  0x08, 0x03, 0xef, 0x00, 0x08, 0x08, 0x08, 0xf4, 0x0d, 0xf8, 0x05, 0xef,
  0xf2, 0xfc, 0x02, 0xf9, 0xf7, 0xfa, 0xf1, 0xf9, 0x02, 0xff, 0x23, 0xf7,
  0x07, 0xfa, 0x09, 0xf2, 0xfa, 0xef, 0xf0, 0xf6, 0xe9, 0xf0, 0xf6, 0x1a,
  0x18, 0x13, 0x0f, 0xff, 0x27, 0x05, 0xeb, 0xf0, 0x12, 0xf2, 0x07, 0x00,
  0xfd, 0xf1, 0xfa, 0x0e, 0xfa, 0x08, 0xef, 0x1a, 0x05, 0xf7, 0xec, 0xe1,
  0x0b, 0x0c, 0x00, 0xfc, 0xf1, 0xf0, 0xf9, 0x08, 0x05, 0xee, 0x19, 0xf8,
  0x14, 0x17, 0x06, 0xfc, 0x0c, 0xeb, 0xfa, 0x0d, 0x02, 0xff, 0x04, 0x1a,
  0x06, 0x01, 0x0e, 0xf3, 0x0e, 0x11, 0x01, 0x0c, 0xfd, 0xea, 0x08, 0x02,
  0x11, 0xff, 0xfd, 0x05, 0x0c, 0x05, 0x0e, 0xfc, 0x04, 0x02, 0x00, 0x0c,
  0x04, 0xf9, 0xf9, 0x05, 0xfc, 0x0c, 0x0e, 0x0a, 0x02, 0xf7, 0x01, 0x0d,
  0x08, 0x06, 0x0a, 0xf1, 0x07, 0xe2, 0x0a, 0x07, 0xf5, 0xd6, 0xf3, 0x0d,
  0x24, 0x15, 0x0f, 0x01, 0x13, 0x07, 0xf1, 0xfb, 0x14, 0xf0, 0x04, 0xe6,
  0xf7, 0xf8, 0x0e, 0x0c, 0x0a, 0x29, 0xf8, 0x12, 0xeb, 0xf3, 0xe4, 0xf4,
  0x0c, 0x12, 0xfc, 0x07, 0xf1, 0xdb, 0x02, 0x12, 0x15, 0xf2, 0x04, 0xff,
  0x04, 0x16, 0x0c, 0x00, 0x09, 0xe6, 0xfc, 0x05, 0xfa, 0x07, 0x06, 0x0e,
  0x02, 0x0a, 0x09, 0xff, 0x0a, 0x0c, 0x0c, 0x16, 0x09, 0xf4, 0x06, 0xfa,
  0x04, 0x0e, 0x06, 0x10, 0x00, 0xf6, 0x04, 0x00, 0x00, 0xe9, 0xf6, 0xf1,
  0x04, 0x07, 0x12, 0x07, 0xfa, 0x00, 0x0d, 0x05, 0xf6, 0xf6, 0x0c, 0x08,
  0x0c, 0x14, 0xf5, 0xf1, 0x0b, 0xea, 0x09, 0x07, 0xf4, 0xd2, 0xf6, 0x14,
  0x33, 0x0c, 0x13, 0x06, 0x07, 0x0f, 0xf9, 0xf9, 0x46, 0xec, 0xf8, 0xf8,
  0x14, 0x00, 0x0c, 0x0c, 0x0c, 0x11, 0xed, 0xfe, 0xf8, 0xea, 0xf5, 0xf5,
  0x27, 0x15, 0x0d, 0xfe, 0x05, 0xee, 0x05, 0x00, 0x11, 0xd5, 0x02, 0x01,
  0x11, 0x08, 0x07, 0xea, 0x0f, 0xea, 0x05, 0xf5, 0xf6, 0xf3, 0xfb, 0x12,
  0x05, 0xfd, 0x01, 0xff, 0xf8, 0x19, 0x0f, 0xfa, 0xf5, 0xed, 0x03, 0xf7,
  0xf6, 0x02, 0x07, 0x13, 0x0a, 0xfd, 0x01, 0xfa, 0x0a, 0x00, 0xfc, 0x0a,
  0xfb, 0xfa, 0x1c, 0x02, 0x18, 0xfd, 0x18, 0xfb, 0xf6, 0x01, 0x0d, 0x03,
  0x06, 0x0c, 0x00, 0xeb, 0x08, 0xf5, 0xfa, 0x0c, 0x3e, 0xff, 0xff, 0xff,
  0x04, 0x00, 0x00, 0x00, 0x10, 0x00, 0x00, 0x00, 0x03, 0x02, 0x00, 0x00,
  0x7d, 0xfe, 0xff, 0xff, 0x82, 0xff, 0xff, 0xff, 0x5f, 0xff, 0xff, 0xff,
  0x5a, 0xff, 0xff, 0xff, 0x04, 0x00, 0x00, 0x00, 0x08, 0x00, 0x00, 0x00,
  0xff, 0xff, 0xff, 0xff, 0x80, 0x01, 0x00, 0x00, 0x94, 0xf2, 0xff, 0xff,
  0x98, 0xf2, 0xff, 0xff, 0x0f, 0x00, 0x00, 0x00, 0x4d, 0x4c, 0x49, 0x52,
  0x20, 0x43, 0x6f, 0x6e, 0x76, 0x65, 0x72, 0x74, 0x65, 0x64, 0x2e, 0x00,
  0x01, 0x00, 0x00, 0x00, 0x14, 0x00, 0x00, 0x00, 0x00, 0x00, 0x0e, 0x00,
  0x18, 0x00, 0x14, 0x00, 0x10, 0x00, 0x0c, 0x00, 0x08, 0x00, 0x04, 0x00,
  0x0e, 0x00, 0x00, 0x00, 0x14, 0x00, 0x00, 0x00, 0x1c, 0x00, 0x00, 0x00,
  0x10, 0x02, 0x00, 0x00, 0x14, 0x02, 0x00, 0x00, 0x18, 0x02, 0x00, 0x00,
  0x04, 0x00, 0x00, 0x00, 0x6d, 0x61, 0x69, 0x6e, 0x00, 0x00, 0x00, 0x00,
  0x07, 0x00, 0x00, 0x00, 0xa8, 0x01, 0x00, 0x00, 0x44, 0x01, 0x00, 0x00,
  0xf0, 0x00, 0x00, 0x00, 0xac, 0x00, 0x00, 0x00, 0x84, 0x00, 0x00, 0x00,
  0x40, 0x00, 0x00, 0x00, 0x04, 0x00, 0x00, 0x00, 0xe2, 0xfe, 0xff, 0xff,
  0x1c, 0x00, 0x00, 0x00, 0x00, 0x00, 0x00, 0x09, 0x1c, 0x00, 0x00, 0x00,
  0x20, 0x00, 0x00, 0x00, 0x04, 0x00, 0x00, 0x00, 0x00, 0x00, 0x06, 0x00,
  0x08, 0x00, 0x04, 0x00, 0x06, 0x00, 0x00, 0x00, 0x00, 0x00, 0x80, 0x3f,
  0x01, 0x00, 0x00, 0x00, 0x0e, 0x00, 0x00, 0x00, 0x01, 0x00, 0x00, 0x00,
  0x0d, 0x00, 0x00, 0x00, 0x1a, 0xff, 0xff, 0xff, 0x14, 0x00, 0x00, 0x00,
  0x00, 0x00, 0x00, 0x08, 0x10, 0x00, 0x00, 0x00, 0x14, 0x00, 0x00, 0x00,
  0x03, 0x00, 0x00, 0x00, 0x5c, 0xf3, 0xff, 0xff, 0x01, 0x00, 0x00, 0x00,
  0x0d, 0x00, 0x00, 0x00, 0x03, 0x00, 0x00, 0x00, 0x0c, 0x00, 0x00, 0x00,
  0x03, 0x00, 0x00, 0x00, 0x02, 0x00, 0x00, 0x00, 0x00, 0x00, 0x0a, 0x00,
  0x10, 0x00, 0x0c, 0x00, 0x08, 0x00, 0x04, 0x00, 0x0a, 0x00, 0x00, 0x00,
  0x0c, 0x00, 0x00, 0x00, 0x10, 0x00, 0x00, 0x00, 0x02, 0x00, 0x00, 0x00,
  0x01, 0x00, 0x00, 0x00, 0x0c, 0x00, 0x00, 0x00, 0x02, 0x00, 0x00, 0x00,
  0x0b, 0x00, 0x00, 0x00, 0x01, 0x00, 0x00, 0x00, 0x7e, 0xff, 0xff, 0xff,
  0x14, 0x00, 0x00, 0x00, 0x00, 0x00, 0x00, 0x05, 0x24, 0x00, 0x00, 0x00,
  0x28, 0x00, 0x00, 0x00, 0x01, 0x00, 0x00, 0x00, 0x6e, 0xff, 0xff, 0xff,
  0x02, 0x00, 0x00, 0x00, 0x02, 0x00, 0x00, 0x00, 0x02, 0x00, 0x00, 0x00,
  0x02, 0x00, 0x00, 0x00, 0x00, 0x00, 0x00, 0x01, 0x01, 0x00, 0x00, 0x00,
  0x0b, 0x00, 0x00, 0x00, 0x01, 0x00, 0x00, 0x00, 0x0a, 0x00, 0x00, 0x00,
  0x5e, 0xff, 0xff, 0xff, 0x10, 0x00, 0x00, 0x00, 0x00, 0x00, 0x00, 0x01,
  0x1c, 0x00, 0x00, 0x00, 0x20, 0x00, 0x00, 0x00, 0x50, 0xff, 0xff, 0xff,
  0x00, 0x00, 0x00, 0x01, 0x01, 0x00, 0x00, 0x00, 0x01, 0x00, 0x00, 0x00,
  0x00, 0x00, 0x00, 0x01, 0x01, 0x00, 0x00, 0x00, 0x0a, 0x00, 0x00, 0x00,
  0x03, 0x00, 0x00, 0x00, 0x09, 0x00, 0x00, 0x00, 0x05, 0x00, 0x00, 0x00,
  0x04, 0x00, 0x00, 0x00, 0x00, 0x00, 0x0e, 0x00, 0x1a, 0x00, 0x14, 0x00,
  0x10, 0x00, 0x0c, 0x00, 0x0b, 0x00, 0x04, 0x00, 0x0e, 0x00, 0x00, 0x00,
  0x24, 0x00, 0x00, 0x00, 0x00, 0x00, 0x00, 0x05, 0x34, 0x00, 0x00, 0x00,
  0x38, 0x00, 0x00, 0x00, 0x01, 0x00, 0x00, 0x00, 0x00, 0x00, 0x0e, 0x00,
  0x18, 0x00, 0x17, 0x00, 0x10, 0x00, 0x0c, 0x00, 0x08, 0x00, 0x04, 0x00,
  0x0e, 0x00, 0x00, 0x00, 0x02, 0x00, 0x00, 0x00, 0x02, 0x00, 0x00, 0x00,
  0x02, 0x00, 0x00, 0x00, 0x02, 0x00, 0x00, 0x00, 0x00, 0x00, 0x00, 0x01,
  0x01, 0x00, 0x00, 0x00, 0x09, 0x00, 0x00, 0x00, 0x01, 0x00, 0x00, 0x00,
  0x08, 0x00, 0x00, 0x00, 0x00, 0x00, 0x0e, 0x00, 0x14, 0x00, 0x00, 0x00,
  0x10, 0x00, 0x0c, 0x00, 0x0b, 0x00, 0x04, 0x00, 0x0e, 0x00, 0x00, 0x00,
  0x1c, 0x00, 0x00, 0x00, 0x00, 0x00, 0x00, 0x01, 0x28, 0x00, 0x00, 0x00,
  0x2c, 0x00, 0x00, 0x00, 0x0c, 0x00, 0x14, 0x00, 0x13, 0x00, 0x0c, 0x00,
  0x08, 0x00, 0x07, 0x00, 0x0c, 0x00, 0x00, 0x00, 0x00, 0x00, 0x00, 0x01,
  0x01, 0x00, 0x00, 0x00, 0x01, 0x00, 0x00, 0x00, 0x00, 0x00, 0x00, 0x01,
  0x01, 0x00, 0x00, 0x00, 0x08, 0x00, 0x00, 0x00, 0x03, 0x00, 0x00, 0x00,
  0x00, 0x00, 0x00, 0x00, 0x07, 0x00, 0x00, 0x00, 0x06, 0x00, 0x00, 0x00,
  0x01, 0x00, 0x00, 0x00, 0x0e, 0x00, 0x00, 0x00, 0x01, 0x00, 0x00, 0x00,
  0x00, 0x00, 0x00, 0x00, 0x0f, 0x00, 0x00, 0x00, 0x50, 0x0b, 0x00, 0x00,
  0xe8, 0x0a, 0x00, 0x00, 0x5c, 0x0a, 0x00, 0x00, 0xf0, 0x09, 0x00, 0x00,
  0x3c, 0x08, 0x00, 0x00, 0x10, 0x07, 0x00, 0x00, 0xc4, 0x05, 0x00, 0x00,
  0xf8, 0x04, 0x00, 0x00, 0xdc, 0x03, 0x00, 0x00, 0x48, 0x03, 0x00, 0x00,
  0x24, 0x02, 0x00, 0x00, 0x90, 0x01, 0x00, 0x00, 0x14, 0x01, 0x00, 0x00,
  0x80, 0x00, 0x00, 0x00, 0x04, 0x00, 0x00, 0x00, 0x02, 0xf5, 0xff, 0xff,
  0x00, 0x00, 0x00, 0x01, 0x18, 0x00, 0x00, 0x00, 0x20, 0x00, 0x00, 0x00,
  0x3c, 0x00, 0x00, 0x00, 0x0f, 0x00, 0x00, 0x00, 0x00, 0x00, 0x00, 0x09,
  0x50, 0x00, 0x00, 0x00, 0x02, 0x00, 0x00, 0x00, 0xff, 0xff, 0xff, 0xff,
  0x04, 0x00, 0x00, 0x00, 0xe4, 0xf4, 0xff, 0xff, 0x08, 0x00, 0x00, 0x00,
  0x10, 0x00, 0x00, 0x00, 0x01, 0x00, 0x00, 0x00, 0x80, 0xff, 0xff, 0xff,
  0xff, 0xff, 0xff, 0xff, 0x01, 0x00, 0x00, 0x00, 0x00, 0x00, 0x80, 0x3b,
  0x19, 0x00, 0x00, 0x00, 0x53, 0x74, 0x61, 0x74, 0x65, 0x66, 0x75, 0x6c,
  0x50, 0x61, 0x72, 0x74, 0x69, 0x74, 0x69, 0x6f, 0x6e, 0x65, 0x64, 0x43,
  0x61, 0x6c, 0x6c, 0x3a, 0x30, 0x00, 0x00, 0x00, 0x02, 0x00, 0x00, 0x00,
  0x01, 0x00, 0x00, 0x00, 0x04, 0x00, 0x00, 0x00, 0x7a, 0xf5, 0xff, 0xff,
  0x00, 0x00, 0x00, 0x01, 0x18, 0x00, 0x00, 0x00, 0x20, 0x00, 0x00, 0x00,
  0x3c, 0x00, 0x00, 0x00, 0x0e, 0x00, 0x00, 0x00, 0x00, 0x00, 0x00, 0x09,
  0x68, 0x00, 0x00, 0x00, 0x02, 0x00, 0x00, 0x00, 0xff, 0xff, 0xff, 0xff,
  0x04, 0x00, 0x00, 0x00, 0x5c, 0xf5, 0xff, 0xff, 0x08, 0x00, 0x00, 0x00,
  0x10, 0x00, 0x00, 0x00, 0x01, 0x00, 0x00, 0x00, 0x32, 0x00, 0x00, 0x00,
  0x00, 0x00, 0x00, 0x00, 0x01, 0x00, 0x00, 0x00, 0x7d, 0xd7, 0x47, 0x3e,
  0x30, 0x00, 0x00, 0x00, 0x73, 0x65, 0x71, 0x75, 0x65, 0x6e, 0x74, 0x69,
  0x61, 0x6c, 0x2f, 0x64, 0x65, 0x6e, 0x73, 0x65, 0x2f, 0x4d, 0x61, 0x74,
  0x4d, 0x75, 0x6c, 0x3b, 0x73, 0x65, 0x71, 0x75, 0x65, 0x6e, 0x74, 0x69,
  0x61, 0x6c, 0x2f, 0x64, 0x65, 0x6e, 0x73, 0x65, 0x2f, 0x42, 0x69, 0x61,
  0x73, 0x41, 0x64, 0x64, 0x00, 0x00, 0x00, 0x00, 0x02, 0x00, 0x00, 0x00,
  0x01, 0x00, 0x00, 0x00, 0x04, 0x00, 0x00, 0x00, 0x0a, 0xf6, 0xff, 0xff,
  0x00, 0x00, 0x00, 0x01, 0x18, 0x00, 0x00, 0x00, 0x20, 0x00, 0x00, 0x00,
  0x3c, 0x00, 0x00, 0x00, 0x0d, 0x00, 0x00, 0x00, 0x00, 0x00, 0x00, 0x09,
  0x50, 0x00, 0x00, 0x00, 0x02, 0x00, 0x00, 0x00, 0xff, 0xff, 0xff, 0xff,
  0x80, 0x01, 0x00, 0x00, 0xec, 0xf5, 0xff, 0xff, 0x08, 0x00, 0x00, 0x00,
  0x10, 0x00, 0x00, 0x00, 0x01, 0x00, 0x00, 0x00, 0x80, 0xff, 0xff, 0xff,
  0xff, 0xff, 0xff, 0xff, 0x01, 0x00, 0x00, 0x00, 0x41, 0x00, 0xa2, 0x3c,
  0x1a, 0x00, 0x00, 0x00, 0x73, 0x65, 0x71, 0x75, 0x65, 0x6e, 0x74, 0x69,
  0x61, 0x6c, 0x2f, 0x66, 0x6c, 0x61, 0x74, 0x74, 0x65, 0x6e, 0x2f, 0x52,
  0x65, 0x73, 0x68, 0x61, 0x70, 0x65, 0x00, 0x00, 0x02, 0x00, 0x00, 0x00,
  0x01, 0x00, 0x00, 0x00, 0x80, 0x01, 0x00, 0x00, 0x82, 0xf6, 0xff, 0xff,
  0x00, 0x00, 0x00, 0x01, 0x18, 0x00, 0x00, 0x00, 0x28, 0x00, 0x00, 0x00,
  0x44, 0x00, 0x00, 0x00, 0x0c, 0x00, 0x00, 0x00, 0x00, 0x00, 0x00, 0x09,
  0x60, 0x00, 0x00, 0x00, 0x04, 0x00, 0x00, 0x00, 0xff, 0xff, 0xff, 0xff,
  0x04, 0x00, 0x00, 0x00, 0x06, 0x00, 0x00, 0x00, 0x10, 0x00, 0x00, 0x00,
  0x6c, 0xf6, 0xff, 0xff, 0x08, 0x00, 0x00, 0x00, 0x10, 0x00, 0x00, 0x00,
  0x01, 0x00, 0x00, 0x00, 0x80, 0xff, 0xff, 0xff, 0xff, 0xff, 0xff, 0xff,
  0x01, 0x00, 0x00, 0x00, 0x41, 0x00, 0xa2, 0x3c, 0x22, 0x00, 0x00, 0x00,
  0x73, 0x65, 0x71, 0x75, 0x65, 0x6e, 0x74, 0x69, 0x61, 0x6c, 0x2f, 0x6d,
  0x61, 0x78, 0x5f, 0x70, 0x6f, 0x6f, 0x6c, 0x69, 0x6e, 0x67, 0x32, 0x64,
  0x5f, 0x31, 0x2f, 0x4d, 0x61, 0x78, 0x50, 0x6f, 0x6f, 0x6c, 0x00, 0x00,
  0x04, 0x00, 0x00, 0x00, 0x01, 0x00, 0x00, 0x00, 0x04, 0x00, 0x00, 0x00,
  0x06, 0x00, 0x00, 0x00, 0x10, 0x00, 0x00, 0x00, 0x12, 0xf7, 0xff, 0xff,
  0x00, 0x00, 0x00, 0x01, 0x18, 0x00, 0x00, 0x00, 0x28, 0x00, 0x00, 0x00,
  0x44, 0x00, 0x00, 0x00, 0x0b, 0x00, 0x00, 0x00, 0x00, 0x00, 0x00, 0x09,
  0xf0, 0x00, 0x00, 0x00, 0x04, 0x00, 0x00, 0x00, 0xff, 0xff, 0xff, 0xff,
  0x09, 0x00, 0x00, 0x00, 0x0d, 0x00, 0x00, 0x00, 0x10, 0x00, 0x00, 0x00,
  0xfc, 0xf6, 0xff, 0xff, 0x08, 0x00, 0x00, 0x00, 0x10, 0x00, 0x00, 0x00,
  0x01, 0x00, 0x00, 0x00, 0x80, 0xff, 0xff, 0xff, 0xff, 0xff, 0xff, 0xff,
  0x01, 0x00, 0x00, 0x00, 0x41, 0x00, 0xa2, 0x3c, 0xb1, 0x00, 0x00, 0x00,
  0x73, 0x65, 0x71, 0x75, 0x65, 0x6e, 0x74, 0x69, 0x61, 0x6c, 0x2f, 0x61,
  0x63, 0x74, 0x69, 0x76, 0x61, 0x74, 0x69, 0x6f, 0x6e, 0x5f, 0x31, 0x2f,
  0x52, 0x65, 0x6c, 0x75, 0x3b, 0x73, 0x65, 0x71, 0x75, 0x65, 0x6e, 0x74,
  0x69, 0x61, 0x6c, 0x2f, 0x62, 0x61, 0x74, 0x63, 0x68, 0x5f, 0x6e, 0x6f,
  0x72, 0x6d, 0x61, 0x6c, 0x69, 0x7a, 0x61, 0x74, 0x69, 0x6f, 0x6e, 0x5f,
  0x31, 0x2f, 0x46, 0x75, 0x73, 0x65, 0x64, 0x42, 0x61, 0x74, 0x63, 0x68,
  0x4e, 0x6f, 0x72, 0x6d, 0x56, 0x33, 0x3b, 0x73, 0x65, 0x71, 0x75, 0x65,
  0x6e, 0x74, 0x69, 0x61, 0x6c, 0x2f, 0x63, 0x6f, 0x6e, 0x76, 0x32, 0x64,
  0x5f, 0x31, 0x2f, 0x42, 0x69, 0x61, 0x73, 0x41, 0x64, 0x64, 0x2f, 0x52,
  0x65, 0x61, 0x64, 0x56, 0x61, 0x72, 0x69, 0x61, 0x62, 0x6c, 0x65, 0x4f,
  0x70, 0x3b, 0x73, 0x65, 0x71, 0x75, 0x65, 0x6e, 0x74, 0x69, 0x61, 0x6c,
  0x2f, 0x63, 0x6f, 0x6e, 0x76, 0x32, 0x64, 0x5f, 0x31, 0x2f, 0x42, 0x69,
  0x61, 0x73, 0x41, 0x64, 0x64, 0x3b, 0x73, 0x65, 0x71, 0x75, 0x65, 0x6e,
  0x74, 0x69, 0x61, 0x6c, 0x2f, 0x63, 0x6f, 0x6e, 0x76, 0x32, 0x64, 0x5f,
  0x31, 0x2f, 0x43, 0x6f, 0x6e, 0x76, 0x32, 0x44, 0x31, 0x00, 0x00, 0x00,
  0x04, 0x00, 0x00, 0x00, 0x01, 0x00, 0x00, 0x00, 0x09, 0x00, 0x00, 0x00,
  0x0d, 0x00, 0x00, 0x00, 0x10, 0x00, 0x00, 0x00, 0x32, 0xf8, 0xff, 0xff,
  0x00, 0x00, 0x00, 0x01, 0x18, 0x00, 0x00, 0x00, 0x28, 0x00, 0x00, 0x00,
  0x44, 0x00, 0x00, 0x00, 0x0a, 0x00, 0x00, 0x00, 0x00, 0x00, 0x00, 0x09,
  0x60, 0x00, 0x00, 0x00, 0x04, 0x00, 0x00, 0x00, 0xff, 0xff, 0xff, 0xff,
  0x0b, 0x00, 0x00, 0x00, 0x0f, 0x00, 0x00, 0x00, 0x08, 0x00, 0x00, 0x00,
  0x1c, 0xf8, 0xff, 0xff, 0x08, 0x00, 0x00, 0x00, 0x10, 0x00, 0x00, 0x00,
  0x01, 0x00, 0x00, 0x00, 0x80, 0xff, 0xff, 0xff, 0xff, 0xff, 0xff, 0xff,
  0x01, 0x00, 0x00, 0x00, 0xd4, 0xa8, 0x60, 0x3c, 0x20, 0x00, 0x00, 0x00,
  0x73, 0x65, 0x71, 0x75, 0x65, 0x6e, 0x74, 0x69, 0x61, 0x6c, 0x2f, 0x6d,
  0x61, 0x78, 0x5f, 0x70, 0x6f, 0x6f, 0x6c, 0x69, 0x6e, 0x67, 0x32, 0x64,
  0x2f, 0x4d, 0x61, 0x78, 0x50, 0x6f, 0x6f, 0x6c, 0x00, 0x00, 0x00, 0x00,
  0x04, 0x00, 0x00, 0x00, 0x01, 0x00, 0x00, 0x00, 0x0b, 0x00, 0x00, 0x00,
  0x0f, 0x00, 0x00, 0x00, 0x08, 0x00, 0x00, 0x00, 0xc2, 0xf8, 0xff, 0xff,
  0x00, 0x00, 0x00, 0x01, 0x18, 0x00, 0x00, 0x00, 0x28, 0x00, 0x00, 0x00,
  0x48, 0x00, 0x00, 0x00, 0x09, 0x00, 0x00, 0x00, 0x00, 0x00, 0x00, 0x09,
  0xe8, 0x00, 0x00, 0x00, 0x04, 0x00, 0x00, 0x00, 0xff, 0xff, 0xff, 0xff,
  0x16, 0x00, 0x00, 0x00, 0x1e, 0x00, 0x00, 0x00, 0x08, 0x00, 0x00, 0x00,
  0xac, 0xf8, 0xff, 0xff, 0x08, 0x00, 0x00, 0x00, 0x14, 0x00, 0x00, 0x00,
  0x01, 0x00, 0x00, 0x00, 0x80, 0xff, 0xff, 0xff, 0xff, 0xff, 0xff, 0xff,
  0x00, 0x00, 0x00, 0x00, 0x01, 0x00, 0x00, 0x00, 0xd4, 0xa8, 0x60, 0x3c,
  0xa7, 0x00, 0x00, 0x00, 0x73, 0x65, 0x71, 0x75, 0x65, 0x6e, 0x74, 0x69,
  0x61, 0x6c, 0x2f, 0x61, 0x63, 0x74, 0x69, 0x76, 0x61, 0x74, 0x69, 0x6f,
  0x6e, 0x2f, 0x52, 0x65, 0x6c, 0x75, 0x3b, 0x73, 0x65, 0x71, 0x75, 0x65,
  0x6e, 0x74, 0x69, 0x61, 0x6c, 0x2f, 0x62, 0x61, 0x74, 0x63, 0x68, 0x5f,
  0x6e, 0x6f, 0x72, 0x6d, 0x61, 0x6c, 0x69, 0x7a, 0x61, 0x74, 0x69, 0x6f,
  0x6e, 0x2f, 0x46, 0x75, 0x73, 0x65, 0x64, 0x42, 0x61, 0x74, 0x63, 0x68,
  0x4e, 0x6f, 0x72, 0x6d, 0x56, 0x33, 0x3b, 0x73, 0x65, 0x71, 0x75, 0x65,
  0x6e, 0x74, 0x69, 0x61, 0x6c, 0x2f, 0x63, 0x6f, 0x6e, 0x76, 0x32, 0x64,
  0x2f, 0x42, 0x69, 0x61, 0x73, 0x41, 0x64, 0x64, 0x2f, 0x52, 0x65, 0x61,
  0x64, 0x56, 0x61, 0x72, 0x69, 0x61, 0x62, 0x6c, 0x65, 0x4f, 0x70, 0x3b,
  0x73, 0x65, 0x71, 0x75, 0x65, 0x6e, 0x74, 0x69, 0x61, 0x6c, 0x2f, 0x63,
  0x6f, 0x6e, 0x76, 0x32, 0x64, 0x2f, 0x42, 0x69, 0x61, 0x73, 0x41, 0x64,
  0x64, 0x3b, 0x73, 0x65, 0x71, 0x75, 0x65, 0x6e, 0x74, 0x69, 0x61, 0x6c,
  0x2f, 0x63, 0x6f, 0x6e, 0x76, 0x32, 0x64, 0x2f, 0x43, 0x6f, 0x6e, 0x76,
  0x32, 0x44, 0x31, 0x00, 0x04, 0x00, 0x00, 0x00, 0x01, 0x00, 0x00, 0x00,
  0x16, 0x00, 0x00, 0x00, 0x1e, 0x00, 0x00, 0x00, 0x08, 0x00, 0x00, 0x00,
  0x3e, 0xfa, 0xff, 0xff, 0x00, 0x00, 0x00, 0x01, 0x14, 0x00, 0x00, 0x00,
  0x88, 0x00, 0x00, 0x00, 0x08, 0x00, 0x00, 0x00, 0x00, 0x00, 0x00, 0x09,
  0x9c, 0x00, 0x00, 0x00, 0xac, 0xf9, 0xff, 0xff, 0x08, 0x00, 0x00, 0x00,
  0x4c, 0x00, 0x00, 0x00, 0x08, 0x00, 0x00, 0x00, 0x00, 0x00, 0x00, 0x00,
  0x00, 0x00, 0x00, 0x00, 0x00, 0x00, 0x00, 0x00, 0x00, 0x00, 0x00, 0x00,
  0x00, 0x00, 0x00, 0x00, 0x00, 0x00, 0x00, 0x00, 0x00, 0x00, 0x00, 0x00,
  0x00, 0x00, 0x00, 0x00, 0x00, 0x00, 0x00, 0x00, 0x00, 0x00, 0x00, 0x00,
  0x00, 0x00, 0x00, 0x00, 0x00, 0x00, 0x00, 0x00, 0x00, 0x00, 0x00, 0x00,
  0x00, 0x00, 0x00, 0x00, 0x00, 0x00, 0x00, 0x00, 0x00, 0x00, 0x00, 0x00,
  0x00, 0x00, 0x00, 0x00, 0x08, 0x00, 0x00, 0x00, 0xfc, 0x9a, 0xef, 0x37,
  0x0a, 0x1c, 0x07, 0x38, 0x7b, 0x80, 0xa3, 0x37, 0x0e, 0x4f, 0xb4, 0x37,
  0x3f, 0xa8, 0xe6, 0x37, 0x66, 0x76, 0xfd, 0x37, 0x64, 0xbe, 0xd6, 0x37,
  0x01, 0x23, 0x1b, 0x37, 0x18, 0x00, 0x00, 0x00, 0x73, 0x65, 0x71, 0x75,
  0x65, 0x6e, 0x74, 0x69, 0x61, 0x6c, 0x2f, 0x63, 0x6f, 0x6e, 0x76, 0x32,
  0x64, 0x2f, 0x43, 0x6f, 0x6e, 0x76, 0x32, 0x44, 0x00, 0x00, 0x00, 0x00,
  0x04, 0x00, 0x00, 0x00, 0x08, 0x00, 0x00, 0x00, 0x03, 0x00, 0x00, 0x00,
  0x03, 0x00, 0x00, 0x00, 0x01, 0x00, 0x00, 0x00, 0x06, 0xfb, 0xff, 0xff,
  0x00, 0x00, 0x00, 0x01, 0x14, 0x00, 0x00, 0x00, 0x88, 0x00, 0x00, 0x00,
  0x07, 0x00, 0x00, 0x00, 0x00, 0x00, 0x00, 0x02, 0x28, 0x01, 0x00, 0x00,
  0x74, 0xfa, 0xff, 0xff, 0x08, 0x00, 0x00, 0x00, 0x4c, 0x00, 0x00, 0x00,
  0x08, 0x00, 0x00, 0x00, 0x00, 0x00, 0x00, 0x00, 0x00, 0x00, 0x00, 0x00,
  0x00, 0x00, 0x00, 0x00, 0x00, 0x00, 0x00, 0x00, 0x00, 0x00, 0x00, 0x00,
  0x00, 0x00, 0x00, 0x00, 0x00, 0x00, 0x00, 0x00, 0x00, 0x00, 0x00, 0x00,
  0x00, 0x00, 0x00, 0x00, 0x00, 0x00, 0x00, 0x00, 0x00, 0x00, 0x00, 0x00,
  0x00, 0x00, 0x00, 0x00, 0x00, 0x00, 0x00, 0x00, 0x00, 0x00, 0x00, 0x00,
  0x00, 0x00, 0x00, 0x00, 0x00, 0x00, 0x00, 0x00, 0x00, 0x00, 0x00, 0x00,
  0x08, 0x00, 0x00, 0x00, 0x4a, 0xb9, 0xa7, 0x38, 0x41, 0x27, 0xbd, 0x38,
  0x12, 0xe7, 0x64, 0x38, 0xad, 0x6e, 0x7c, 0x38, 0xc6, 0x75, 0xa1, 0x38,
  0x7a, 0x6c, 0xb1, 0x38, 0x13, 0x52, 0x96, 0x38, 0x01, 0x31, 0xd9, 0x37,
  0xa6, 0x00, 0x00, 0x00, 0x73, 0x65, 0x71, 0x75, 0x65, 0x6e, 0x74, 0x69,
  0x61, 0x6c, 0x2f, 0x61, 0x63, 0x74, 0x69, 0x76, 0x61, 0x74, 0x69, 0x6f,
  0x6e, 0x2f, 0x52, 0x65, 0x6c, 0x75, 0x3b, 0x73, 0x65, 0x71, 0x75, 0x65,
  0x6e, 0x74, 0x69, 0x61, 0x6c, 0x2f, 0x62, 0x61, 0x74, 0x63, 0x68, 0x5f,
  0x6e, 0x6f, 0x72, 0x6d, 0x61, 0x6c, 0x69, 0x7a, 0x61, 0x74, 0x69, 0x6f,
  0x6e, 0x2f, 0x46, 0x75, 0x73, 0x65, 0x64, 0x42, 0x61, 0x74, 0x63, 0x68,
  0x4e, 0x6f, 0x72, 0x6d, 0x56, 0x33, 0x3b, 0x73, 0x65, 0x71, 0x75, 0x65,
  0x6e, 0x74, 0x69, 0x61, 0x6c, 0x2f, 0x63, 0x6f, 0x6e, 0x76, 0x32, 0x64,
  0x2f, 0x42, 0x69, 0x61, 0x73, 0x41, 0x64, 0x64, 0x2f, 0x52, 0x65, 0x61,
  0x64, 0x56, 0x61, 0x72, 0x69, 0x61, 0x62, 0x6c, 0x65, 0x4f, 0x70, 0x3b,
  0x73, 0x65, 0x71, 0x75, 0x65, 0x6e, 0x74, 0x69, 0x61, 0x6c, 0x2f, 0x63,
  0x6f, 0x6e, 0x76, 0x32, 0x64, 0x2f, 0x42, 0x69, 0x61, 0x73, 0x41, 0x64,
  0x64, 0x3b, 0x73, 0x65, 0x71, 0x75, 0x65, 0x6e, 0x74, 0x69, 0x61, 0x6c,
  0x2f, 0x63, 0x6f, 0x6e, 0x76, 0x32, 0x64, 0x2f, 0x43, 0x6f, 0x6e, 0x76,
  0x32, 0x44, 0x00, 0x00, 0x01, 0x00, 0x00, 0x00, 0x08, 0x00, 0x00, 0x00,
  0x4e, 0xfc, 0xff, 0xff, 0x00, 0x00, 0x00, 0x01, 0x14, 0x00, 0x00, 0x00,
  0xe8, 0x00, 0x00, 0x00, 0x06, 0x00, 0x00, 0x00, 0x00, 0x00, 0x00, 0x09,
  0xfc, 0x00, 0x00, 0x00, 0xbc, 0xfb, 0xff, 0xff, 0x08, 0x00, 0x00, 0x00,
  0x8c, 0x00, 0x00, 0x00, 0x10, 0x00, 0x00, 0x00, 0x00, 0x00, 0x00, 0x00,
  0x00, 0x00, 0x00, 0x00, 0x00, 0x00, 0x00, 0x00, 0x00, 0x00, 0x00, 0x00,
  0x00, 0x00, 0x00, 0x00, 0x00, 0x00, 0x00, 0x00, 0x00, 0x00, 0x00, 0x00,
  0x00, 0x00, 0x00, 0x00, 0x00, 0x00, 0x00, 0x00, 0x00, 0x00, 0x00, 0x00,
  0x00, 0x00, 0x00, 0x00, 0x00, 0x00, 0x00, 0x00, 0x00, 0x00, 0x00, 0x00,
  0x00, 0x00, 0x00, 0x00, 0x00, 0x00, 0x00, 0x00, 0x00, 0x00, 0x00, 0x00,
  0x00, 0x00, 0x00, 0x00, 0x00, 0x00, 0x00, 0x00, 0x00, 0x00, 0x00, 0x00,
  0x00, 0x00, 0x00, 0x00, 0x00, 0x00, 0x00, 0x00, 0x00, 0x00, 0x00, 0x00,
  0x00, 0x00, 0x00, 0x00, 0x00, 0x00, 0x00, 0x00, 0x00, 0x00, 0x00, 0x00,
  0x00, 0x00, 0x00, 0x00, 0x00, 0x00, 0x00, 0x00, 0x00, 0x00, 0x00, 0x00,
  0x00, 0x00, 0x00, 0x00, 0x00, 0x00, 0x00, 0x00, 0x00, 0x00, 0x00, 0x00,
  0x00, 0x00, 0x00, 0x00, 0x00, 0x00, 0x00, 0x00, 0x10, 0x00, 0x00, 0x00,
  0x24, 0x79, 0xf2, 0x3b, 0x5b, 0x2e, 0xd6, 0x3b, 0x57, 0x57, 0x13, 0x3c,
  0x76, 0xba, 0xff, 0x3b, 0xe9, 0x9d, 0x86, 0x3b, 0x64, 0x63, 0xce, 0x3b,
  0x97, 0x95, 0x95, 0x3b, 0x06, 0xbd, 0xb8, 0x3b, 0x9b, 0x55, 0xa8, 0x3b,
  0x51, 0x4c, 0xe3, 0x3b, 0x1b, 0x6d, 0xdb, 0x3b, 0x64, 0x8d, 0xd9, 0x3b,
  0xae, 0x04, 0x9c, 0x3b, 0x1f, 0x51, 0x12, 0x3c, 0x04, 0x98, 0x20, 0x3c,
  0xad, 0x8f, 0x6b, 0x3b, 0x1a, 0x00, 0x00, 0x00, 0x73, 0x65, 0x71, 0x75,
  0x65, 0x6e, 0x74, 0x69, 0x61, 0x6c, 0x2f, 0x63, 0x6f, 0x6e, 0x76, 0x32,
  0x64, 0x5f, 0x31, 0x2f, 0x43, 0x6f, 0x6e, 0x76, 0x32, 0x44, 0x00, 0x00,
  0x04, 0x00, 0x00, 0x00, 0x10, 0x00, 0x00, 0x00, 0x03, 0x00, 0x00, 0x00,
  0x03, 0x00, 0x00, 0x00, 0x08, 0x00, 0x00, 0x00, 0x76, 0xfd, 0xff, 0xff,
  0x00, 0x00, 0x00, 0x01, 0x14, 0x00, 0x00, 0x00, 0xe4, 0x00, 0x00, 0x00,
  0x05, 0x00, 0x00, 0x00, 0x00, 0x00, 0x00, 0x02, 0x90, 0x01, 0x00, 0x00,
  0xe4, 0xfc, 0xff, 0xff, 0x08, 0x00, 0x00, 0x00, 0x88, 0x00, 0x00, 0x00,
  0x10, 0x00, 0x00, 0x00, 0x00, 0x00, 0x00, 0x00, 0x00, 0x00, 0x00, 0x00,
  0x00, 0x00, 0x00, 0x00, 0x00, 0x00, 0x00, 0x00, 0x00, 0x00, 0x00, 0x00,
  0x00, 0x00, 0x00, 0x00, 0x00, 0x00, 0x00, 0x00, 0x00, 0x00, 0x00, 0x00,
  0x00, 0x00, 0x00, 0x00, 0x00, 0x00, 0x00, 0x00, 0x00, 0x00, 0x00, 0x00,
  0x00, 0x00, 0x00, 0x00, 0x00, 0x00, 0x00, 0x00, 0x00, 0x00, 0x00, 0x00,
  0x00, 0x00, 0x00, 0x00, 0x00, 0x00, 0x00, 0x00, 0x00, 0x00, 0x00, 0x00,
  0x00, 0x00, 0x00, 0x00, 0x00, 0x00, 0x00, 0x00, 0x00, 0x00, 0x00, 0x00,
  0x00, 0x00, 0x00, 0x00, 0x00, 0x00, 0x00, 0x00, 0x00, 0x00, 0x00, 0x00,
  0x00, 0x00, 0x00, 0x00, 0x00, 0x00, 0x00, 0x00, 0x00, 0x00, 0x00, 0x00,
  0x00, 0x00, 0x00, 0x00, 0x00, 0x00, 0x00, 0x00, 0x00, 0x00, 0x00, 0x00,
  0x00, 0x00, 0x00, 0x00, 0x00, 0x00, 0x00, 0x00, 0x00, 0x00, 0x00, 0x00,
  0x10, 0x00, 0x00, 0x00, 0xe8, 0xc9, 0xd4, 0x38, 0xcf, 0xf5, 0xbb, 0x38,
  0x97, 0x4d, 0x01, 0x39, 0xcd, 0x6b, 0xe0, 0x38, 0xe6, 0x45, 0x6c, 0x38,
  0x14, 0x1f, 0xb5, 0x38, 0x8a, 0x45, 0x83, 0x38, 0x3a, 0x1f, 0xa2, 0x38,
  0xeb, 0xb9, 0x93, 0x38, 0xad, 0x78, 0xc7, 0x38, 0x2d, 0x90, 0xc0, 0x38,
  0x30, 0xeb, 0xbe, 0x38, 0xfd, 0xea, 0x88, 0x38, 0x7a, 0x67, 0x00, 0x39,
  0xec, 0xee, 0x0c, 0x39, 0x11, 0xb9, 0x4e, 0x38, 0xb0, 0x00, 0x00, 0x00,
  0x73, 0x65, 0x71, 0x75, 0x65, 0x6e, 0x74, 0x69, 0x61, 0x6c, 0x2f, 0x61,
  0x63, 0x74, 0x69, 0x76, 0x61, 0x74, 0x69, 0x6f, 0x6e, 0x5f, 0x31, 0x2f,
  0x52, 0x65, 0x6c, 0x75, 0x3b, 0x73, 0x65, 0x71, 0x75, 0x65, 0x6e, 0x74,
  0x69, 0x61, 0x6c, 0x2f, 0x62, 0x61, 0x74, 0x63, 0x68, 0x5f, 0x6e, 0x6f,
  0x72, 0x6d, 0x61, 0x6c, 0x69, 0x7a, 0x61, 0x74, 0x69, 0x6f, 0x6e, 0x5f,
  0x31, 0x2f, 0x46, 0x75, 0x73, 0x65, 0x64, 0x42, 0x61, 0x74, 0x63, 0x68,
  0x4e, 0x6f, 0x72, 0x6d, 0x56, 0x33, 0x3b, 0x73, 0x65, 0x71, 0x75, 0x65,
  0x6e, 0x74, 0x69, 0x61, 0x6c, 0x2f, 0x63, 0x6f, 0x6e, 0x76, 0x32, 0x64,
  0x5f, 0x31, 0x2f, 0x42, 0x69, 0x61, 0x73, 0x41, 0x64, 0x64, 0x2f, 0x52,
  0x65, 0x61, 0x64, 0x56, 0x61, 0x72, 0x69, 0x61, 0x62, 0x6c, 0x65, 0x4f,
  0x70, 0x3b, 0x73, 0x65, 0x71, 0x75, 0x65, 0x6e, 0x74, 0x69, 0x61, 0x6c,
  0x2f, 0x63, 0x6f, 0x6e, 0x76, 0x32, 0x64, 0x5f, 0x31, 0x2f, 0x42, 0x69,
  0x61, 0x73, 0x41, 0x64, 0x64, 0x3b, 0x73, 0x65, 0x71, 0x75, 0x65, 0x6e,
  0x74, 0x69, 0x61, 0x6c, 0x2f, 0x63, 0x6f, 0x6e, 0x76, 0x32, 0x64, 0x5f,
  0x31, 0x2f, 0x43, 0x6f, 0x6e, 0x76, 0x32, 0x44, 0x00, 0x00, 0x00, 0x00,
  0x01, 0x00, 0x00, 0x00, 0x10, 0x00, 0x00, 0x00, 0x26, 0xff, 0xff, 0xff,
  0x00, 0x00, 0x00, 0x01, 0x14, 0x00, 0x00, 0x00, 0x34, 0x00, 0x00, 0x00,
  0x04, 0x00, 0x00, 0x00, 0x00, 0x00, 0x00, 0x09, 0x44, 0x00, 0x00, 0x00,
  0x94, 0xfe, 0xff, 0xff, 0x08, 0x00, 0x00, 0x00, 0x14, 0x00, 0x00, 0x00,
  0x01, 0x00, 0x00, 0x00, 0x00, 0x00, 0x00, 0x00, 0x00, 0x00, 0x00, 0x00,
  0x00, 0x00, 0x00, 0x00, 0x01, 0x00, 0x00, 0x00, 0x62, 0x05, 0x02, 0x3c,
  0x17, 0x00, 0x00, 0x00, 0x73, 0x65, 0x71, 0x75, 0x65, 0x6e, 0x74, 0x69,
  0x61, 0x6c, 0x2f, 0x64, 0x65, 0x6e, 0x73, 0x65, 0x2f, 0x4d, 0x61, 0x74,
  0x4d, 0x75, 0x6c, 0x00, 0x02, 0x00, 0x00, 0x00, 0x04, 0x00, 0x00, 0x00,
  0x80, 0x01, 0x00, 0x00, 0x8e, 0xff, 0xff, 0xff, 0x00, 0x00, 0x00, 0x01,
  0x14, 0x00, 0x00, 0x00, 0x30, 0x00, 0x00, 0x00, 0x03, 0x00, 0x00, 0x00,
  0x00, 0x00, 0x00, 0x02, 0x50, 0x00, 0x00, 0x00, 0xfc, 0xfe, 0xff, 0xff,
  0x08, 0x00, 0x00, 0x00, 0x10, 0x00, 0x00, 0x00, 0x01, 0x00, 0x00, 0x00,
  0x00, 0x00, 0x00, 0x00, 0x00, 0x00, 0x00, 0x00, 0x01, 0x00, 0x00, 0x00,
  0x12, 0x8f, 0x24, 0x39, 0x27, 0x00, 0x00, 0x00, 0x73, 0x65, 0x71, 0x75,
  0x65, 0x6e, 0x74, 0x69, 0x61, 0x6c, 0x2f, 0x64, 0x65, 0x6e, 0x73, 0x65,
  0x2f, 0x42, 0x69, 0x61, 0x73, 0x41, 0x64, 0x64, 0x2f, 0x52, 0x65, 0x61,
  0x64, 0x56, 0x61, 0x72, 0x69, 0x61, 0x62, 0x6c, 0x65, 0x4f, 0x70, 0x00,
  0x01, 0x00, 0x00, 0x00, 0x04, 0x00, 0x00, 0x00, 0x00, 0x00, 0x16, 0x00,
  0x1c, 0x00, 0x18, 0x00, 0x17, 0x00, 0x10, 0x00, 0x0c, 0x00, 0x08, 0x00,
  0x00, 0x00, 0x00, 0x00, 0x00, 0x00, 0x07, 0x00, 0x16, 0x00, 0x00, 0x00,
  0x00, 0x00, 0x00, 0x01, 0x18, 0x00, 0x00, 0x00, 0x18, 0x00, 0x00, 0x00,
  0x02, 0x00, 0x00, 0x00, 0x00, 0x00, 0x00, 0x02, 0x2c, 0x00, 0x00, 0x00,
  0x04, 0x00, 0x04, 0x00, 0x04, 0x00, 0x00, 0x00, 0x18, 0x00, 0x00, 0x00,
  0x73, 0x65, 0x71, 0x75, 0x65, 0x6e, 0x74, 0x69, 0x61, 0x6c, 0x2f, 0x66,
  0x6c, 0x61, 0x74, 0x74, 0x65, 0x6e, 0x2f, 0x43, 0x6f, 0x6e, 0x73, 0x74,
  0x00, 0x00, 0x00, 0x00, 0x01, 0x00, 0x00, 0x00, 0x02, 0x00, 0x00, 0x00,
  0x00, 0x00, 0x16, 0x00, 0x20, 0x00, 0x1c, 0x00, 0x1b, 0x00, 0x14, 0x00,
  0x10, 0x00, 0x0c, 0x00, 0x00, 0x00, 0x00, 0x00, 0x08, 0x00, 0x07, 0x00,
  0x16, 0x00, 0x00, 0x00, 0x00, 0x00, 0x00, 0x01, 0x18, 0x00, 0x00, 0x00,
  0x34, 0x00, 0x00, 0x00, 0x50, 0x00, 0x00, 0x00, 0x01, 0x00, 0x00, 0x00,
  0x00, 0x00, 0x00, 0x09, 0x64, 0x00, 0x00, 0x00, 0x04, 0x00, 0x00, 0x00,
  0xff, 0xff, 0xff, 0xff, 0x18, 0x00, 0x00, 0x00, 0x20, 0x00, 0x00, 0x00,
  0x01, 0x00, 0x00, 0x00, 0x0c, 0x00, 0x0c, 0x00, 0x00, 0x00, 0x00, 0x00,
  0x08, 0x00, 0x04, 0x00, 0x0c, 0x00, 0x00, 0x00, 0x08, 0x00, 0x00, 0x00,
  0x10, 0x00, 0x00, 0x00, 0x01, 0x00, 0x00, 0x00, 0x80, 0xff, 0xff, 0xff,
  0xff, 0xff, 0xff, 0xff, 0x01, 0x00, 0x00, 0x00, 0x33, 0x33, 0x33, 0x40,
  0x19, 0x00, 0x00, 0x00, 0x73, 0x65, 0x72, 0x76, 0x69, 0x6e, 0x67, 0x5f,
  0x64, 0x65, 0x66, 0x61, 0x75, 0x6c, 0x74, 0x5f, 0x69, 0x6e, 0x70, 0x75,
  0x74, 0x5f, 0x31, 0x3a, 0x30, 0x00, 0x00, 0x00, 0x04, 0x00, 0x00, 0x00,
  0x01, 0x00, 0x00, 0x00, 0x18, 0x00, 0x00, 0x00, 0x20, 0x00, 0x00, 0x00,
  0x01, 0x00, 0x00, 0x00, 0x05, 0x00, 0x00, 0x00, 0x68, 0x00, 0x00, 0x00,
  0x48, 0x00, 0x00, 0x00, 0x38, 0x00, 0x00, 0x00, 0x18, 0x00, 0x00, 0x00,
  0x04, 0x00, 0x00, 0x00, 0xb8, 0xff, 0xff, 0xff, 0x19, 0x00, 0x00, 0x00,
  0x02, 0x00, 0x00, 0x00, 0x00, 0x00, 0x00, 0x19, 0xc8, 0xff, 0xff, 0xff,
  0x09, 0x00, 0x00, 0x00, 0x04, 0x00, 0x00, 0x00, 0x00, 0x00, 0x00, 0x09,
  0x0c, 0x00, 0x0c, 0x00, 0x0b, 0x00, 0x00, 0x00, 0x00, 0x00, 0x04, 0x00,
  0x0c, 0x00, 0x00, 0x00, 0x16, 0x00, 0x00, 0x00, 0x00, 0x00, 0x00, 0x16,
  0xf0, 0xff, 0xff, 0xff, 0x11, 0x00, 0x00, 0x00, 0x02, 0x00, 0x00, 0x00,
  0x00, 0x00, 0x00, 0x11, 0x0c, 0x00, 0x10, 0x00, 0x0f, 0x00, 0x00, 0x00,
  0x08, 0x00, 0x04, 0x00, 0x0c, 0x00, 0x00, 0x00, 0x03, 0x00, 0x00, 0x00,
  0x03, 0x00, 0x00, 0x00, 0x00, 0x00, 0x00, 0x03
};
const int g_model_len = 7232;
